0007
0006
0006
FFF9
FFF9
0003
FFFF
0003
0005
0005
0001
0001
FFFD
FFF9
000C
FFFF
FFFC
0003
FFFE
0000
0002
FFFE
0004
FFFF
0003
FFFB
FFFC
0006
0008
FFF8
0001
FFFA
FFFF
0006
FFF6
001F
0016
FFEE
FFDF
FFD1
FFEC
FFE3
FFF1
0003
0012
FFF2
FFE8
0015
001E
000D
000F
000E
0000
0005
0003
0001
0008
0001
0001
0008
FFEA
FFFF
0005
0027
000C
0013
FFF3
0008
0018
0030
0003
001C
003F
0027
0010
0007
FFF3
FFFE
FFE0
FFF1
0001
001A
0006
0008
0000
FFFF
0007
0000
FFFE
0022
002A
000C
0017
0018
002F
FFFB
002B
002F
0016
0014
0013
0011
0018
000D
001A
0001
FFE9
FFF3
FFF6
002B
0006
0007
FFF8
0004
FFF9
0004
0022
002B
0012
FFFB
0028
0006
001D
0012
0010
0005
001C
000B
000F
0009
000F
0000
FFFC
FFFB
FFEE
FFEE
FFF8
0002
001C
0006
FFFF
0007
FFFE
0018
FFFC
0033
0005
0022
FFED
000C
0015
0001
0003
0000
0009
0001
000E
000B
0010
0004
000C
0008
000A
0019
FFF3
0008
FFF1
0000
FFFF
0006
FFFD
0023
0029
0011
000C
0006
FFFE
0016
0008
000B
0008
0002
000B
0001
000B
FFFA
0009
FFF9
0007
0004
FFF4
0007
0030
000A
0011
0018
FFFF
001C
FFDB
0014
0001
FFFA
FFF6
FFFC
000B
0005
000E
FFFF
0006
FFFE
0012
FFF7
0007
FFFF
0001
FFFE
0009
0008
0009
FFFD
000B
000E
000E
FFEF
FFFA
0000
000D
FFF9
0002
FFEE
FFEC
0001
0003
0003
000D
000D
0000
000D
0012
FFFE
FFF9
0002
FFF7
0017
000E
0002
000E
0009
000E
002E
0033
0003
0004
0010
0015
FFFD
000B
FFEC
FFF8
0000
0009
000E
FFFB
0006
0009
FFF4
FFFF
000D
FFFD
FFF9
FFFC
FFF5
FFFB
0009
0019
000F
0030
002D
0023
0017
FFFA
0006
FFF9
000A
FFF8
0005
0003
FFF2
0003
FFF8
FFF8
FFF7
FFEA
FFF3
FFFB
0003
FFFE
FFFA
FFE2
FFD8
FFE5
FFE9
FFD7
FFEE
FFF7
0031
002B
001A
FFF4
FFF4
0001
FFF0
FFFA
FFFA
FFF5
FFE4
FFF0
FFE3
FFE7
FFEB
FFF1
FFE6
FFF7
FFFC
FFFA
FFEF
FFE1
FFDC
FFAF
FFA1
FF9C
FFAC
FFAE
0012
0020
FFE7
FFF6
FFFD
FFEB
FFF6
FFE2
FFE8
FFD7
FFCF
FFD6
FFE3
FFF7
FFF2
FFF0
FFF4
FFFA
0004
0001
FFE6
FFF3
FFEA
FFEA
FFD7
FFC0
FF96
FF7E
FFEA
FFF7
FFED
0004
FFE5
FFF2
FFD9
FFD3
FFC2
FFD2
FFD7
FFED
FFEE
FFEF
FFFA
0010
0011
001D
0006
FFF5
0002
0007
0000
FFF9
FFF8
FFE5
FFC7
FFD5
000D
0016
FFF8
0001
FFFA
FFDD
0005
FFEE
FFDE
FFF4
FFEB
FFF9
000A
0004
FFFE
0006
000C
0017
0007
0009
FFFC
FFF9
FFFB
0002
FFF2
FFED
FFF0
000A
000A
0032
FFFB
FFFA
0008
FFF0
FFFA
FFFB
FFFC
001B
0001
0003
0004
FFFD
0009
000F
001D
000D
000B
000A
FFF5
FFFF
0001
FFF7
FFEF
FFF0
FFE5
0023
0023
0008
0022
0006
0000
0032
001A
002E
000C
0006
FFEA
FFD9
FFF7
FFFA
FFFB
0007
0021
0012
FFFE
FFFC
0006
0000
0009
0009
001A
0022
0001
0046
0050
0025
001A
FFFA
000E
0017
0033
0033
0012
0015
FFF6
FFF2
FFE5
FFE5
FFEA
FFF7
000C
0010
000B
0001
000B
000E
FFFD
0014
0008
000D
000D
0017
002A
0046
FFF8
0001
0005
0006
003D
0029
0017
0013
0006
FFF3
FFED
FFE0
FFE2
000A
000E
000F
0005
000F
000F
0006
0019
0007
0013
001D
0024
002D
0045
002D
001D
0006
0009
FFF2
0026
003D
000D
000B
0012
000F
0012
FFF8
0003
0006
0014
0015
001E
001C
0016
0014
0008
000D
000E
0017
0007
0019
0044
0031
FFFB
0002
FFF8
0013
0024
0010
0017
0013
0008
0012
001C
0009
0009
FFFC
FFF8
000C
0002
0019
001E
0019
0011
0015
0016
0024
0028
0026
001B
001A
0003
0002
0000
0026
003E
0020
0014
0009
0011
0010
FFFF
000E
0006
FFFE
0007
FFFC
0008
0008
001C
0019
0022
000E
0021
001D
003B
002A
004A
FFEC
0004
FFF9
0007
0012
0005
002D
0016
0001
FFFF
0004
0007
FFFC
FFFF
0000
FFEC
FFFE
0003
0001
0016
0024
001E
0029
0008
001D
FFEC
0009
0033
0015
FFF8
0008
0005
001D
0001
0008
000E
0008
FFFD
0004
0008
0006
000C
0001
FFFF
FFFA
0008
0000
0005
000E
0010
0025
FFFA
0027
FFFB
0029
002F
0018
0004
FFFD
FFFC
0008
0024
0023
0005
000D
0005
FFF3
000D
FFF5
000E
FFFF
000A
000B
0006
0005
0024
0014
000C
0009
0022
0000
FFEF
001E
001D
0007
FFFD
FFFC
FFFB
FFFE
0019
000F
0005
0025
FFF4
0014
000F
0009
0004
000B
0001
FFF0
FFF3
FFF2
000C
FFED
FFFA
FFF2
FFF3
000D
0004
0026
FFFF
FFF8
FFF9
0008
0001
FFFD
FFFE
FFF5
FFFE
0013
000A
FFF1
0009
FFEA
FFF6
FFF6
FFE9
FFE5
000A
0005
FFE4
FFCB
FFEF
FFEA
000A
000C
FFE1
FFFF
FFFE
0004
FFFA
0007
FFFA
FFFF
0001
0004
FFFF
0003
FFFB
0008
0002
0000
FFEB
FFF5
0009
FFF5
FFF8
FFE1
FFEC
FFDC
000D
FFDF
000B
FFEE
0007
0007
0008
FFFB
0001
FFF8
0004
0001
FFF9
0007
0002
FFFF
0001
FFFA
0001
0007
0003
0007
0006
FFFF
FFF9
FFF9
FFFA
FFF9
FFFA
FFF9
0001
0007
FFFC
0006
0007
0000
0007
0007
FFF9
0003
FFFD
FFFE
0003
0021
0023
001F
000C
000A
FFFC
FFFC
FFF4
FFEB
FFFA
FFF6
FFF8
000B
0006
0011
0005
001A
001C
0003
FFFC
0003
0001
FFFE
0003
0007
FFFB
FFEA
0002
0012
0030
0026
001E
0027
FFFB
0010
0020
0024
000E
FFEA
0014
0017
FFFF
FFF7
FFF9
000D
0029
001B
0016
0004
0007
0001
0002
FFFE
FFFE
0000
FFF1
0024
0025
FFF8
0009
FFF2
FFF4
0003
0000
FFF4
FFF6
FFF0
FFC4
FFDA
FFF7
FFF6
FFF0
0005
0004
000A
000A
0008
0004
0004
FFFB
0007
FFFD
0004
0006
000A
FFE4
0005
FFF3
FFFA
FFE7
FFF0
0002
FFF0
FFF6
FFF5
0000
FFED
FFFF
FFF0
FFF6
FFE5
FFD7
FFE0
0014
FFF5
0008
FFFA
FFFE
FFFA
FFE6
0002
0024
0012
0017
0009
0005
FFFF
FFF8
0004
FFFD
0001
FFFF
FFFF
FFFB
FFEE
FFEA
FFF8
0003
000C
FFF1
FFF8
FFF7
0013
FFFC
0002
0005
FFEC
FFE9
0003
0016
0021
001C
0003
000E
000A
000B
000A
0000
FFF3
FFF8
FFFB
FFFE
FFF5
FFF4
FFEF
0008
FFFE
0008
0001
FFF1
000E
0023
0002
0000
0039
0005
002A
001C
000F
0028
000A
000C
000F
000A
0003
FFFF
FFE7
FFF7
FFF8
FFF9
000A
0003
0011
0018
000A
001B
0008
FFF9
002E
0009
FFFE
0018
0006
0020
0032
0010
001C
001E
0021
0010
0014
0015
0020
0000
0002
0009
FFF3
FFFE
0004
0002
000E
FFF2
000E
0021
FFFF
FFEC
001B
000D
0007
0017
0028
002C
001B
001D
0012
000F
001A
0001
0005
0004
000D
0007
0010
0007
0000
0006
FFFD
0005
FFFA
000B
000B
0008
001E
0007
002E
002B
0007
0014
001E
FFFE
001A
001B
0012
0003
000C
000F
0011
0004
0003
0021
0012
0000
0005
0008
0004
0004
0004
0016
FFFF
001C
0021
0014
0033
000C
000B
0024
0016
FFF5
0024
0014
0007
0025
000A
001B
000C
0003
FFF4
FFFB
0006
FFF8
000E
FFF9
0001
0003
FFFE
FFFA
0009
0011
001A
0001
FFEA
FFFC
0000
0007
FFF5
FFFC
0032
0019
0006
000F
0013
0002
FFE7
FFEE
FFD5
FFD2
FFFE
0001
0000
FFEB
0006
FFF2
FFF7
FFF2
FFE6
FFEC
000B
0021
0021
FFF7
FFFE
0001
0029
0004
FFEF
FFE5
FFEE
FFE4
FFEA
FFED
FFDA
FFCA
FFC3
FFE7
0002
FFF9
FFF3
FFF7
FFF1
FFF3
FFFC
FFFB
0006
000C
002B
003B
0008
0014
FFFE
0007
001B
0004
FFD2
FFEB
FFDD
FFE3
FFD7
FFC8
FFD8
FFD1
FFD9
0005
0012
FFFD
FFFE
0003
0002
0017
000B
FFFA
0011
0011
FFF7
0012
FFFB
0001
0005
FFFE
0027
0001
FFCC
FFD3
FFEB
FFD4
FFD9
FFD1
FFD5
FFEC
0000
001F
000F
0004
FFFB
0003
0005
FFF1
FFF1
000C
000E
FFFA
0012
FFF7
0009
000E
0001
FFFE
FFFC
0005
FFDB
FFDC
FFEB
FFD4
FFC9
FFD5
FFE3
FFFE
000F
0016
0011
0007
0008
FFFB
0000
0004
FFFE
0000
0005
FFEA
FFF0
FFF8
0011
FFFF
FFF8
0001
FFFD
FFE8
FFD3
FFEC
FFD9
FFD3
FFCD
FFF5
FFFF
001B
0016
001E
0013
FFEF
0002
FFF3
0003
0000
0002
FFF4
FFF5
000E
0013
0012
0029
0008
0008
0002
FFFE
FFD9
FFE7
FFE0
FFCF
FFDE
FFD4
0006
0019
0017
0026
001F
0014
000B
FFF4
FFF8
0002
FFE7
FFEC
FFFD
FFEC
FFF5
0007
FFDD
0004
000C
0007
FFFF
FFE6
FFFD
0008
FFD1
FFE9
FFF4
FFF7
001C
0008
001A
0029
0014
0015
000F
0006
FFF3
FFE5
FFF7
0002
FFEC
FFED
FFEA
FFFF
0009
0010
0009
FFFF
FFFA
FFE2
FFF4
FFF5
FFC6
FFF5
FFFD
FFFD
0009
0010
000D
0025
001A
000F
0004
FFF4
FFF9
FFF1
FFF9
FFEE
FFE8
FFDA
FFFC
000C
FFF4
0017
0005
FFF8
FFFD
0001
000D
FFED
FFED
0002
FFEB
0003
FFFE
000C
000D
000C
000B
0010
000F
000B
0009
0001
0001
FFFC
0002
FFE1
0000
0018
002C
FFF0
FFFD
FFFB
0006
FFE4
FFDE
FFFB
002D
0004
000A
0001
FFF8
FFFA
FFFB
0002
0007
000C
0013
0003
0012
0004
000D
FFF8
0008
FFDA
FFBA
001E
0024
000A
FFF8
0003
FFF9
FFF9
FFCE
FFE9
0002
0021
0002
FFEB
000E
0001
0008
000B
000C
0008
0017
000F
000A
0007
0002
FFE9
FFE2
000B
FFF6
FFDD
0010
0023
0000
FFFE
0006
FFFD
FFEE
FFDB
0006
FFF2
FFEF
FFF5
FFFB
FFFF
FFFD
000E
000B
000B
0002
0004
FFFC
0009
0006
0003
0000
FFF7
FFBC
0007
FFE3
FFFB
0001
FFFE
0001
0004
0020
FFF6
FFF1
FFF1
FFF0
FFF7
FFF4
FFEB
0001
FFFC
FFF7
FFFC
0006
FFFC
0007
0003
FFF8
FFE0
FFEB
0000
FFDA
FFF0
0003
0003
0002
0003
FFFF
FFF9
FFFB
FFE0
FFED
FFF1
FFF6
FFFB
0001
FFFA
0001
FFFB
FFF0
000E
0002
FFF7
000D
FFF5
000B
0002
FFF5
FFFC
FFE5
0002
FFF9
FFF9
FFFD
0001
0007
0007
FFFE
FFF8
000E
000E
000D
000F
0027
0028
FFED
FFFC
0044
000E
000B
0017
0050
0006
0010
000E
0007
FFE7
0002
FFFB
0002
0008
0000
FFF8
0003
0000
0002
FFFA
FFFB
FFF7
0007
0007
0004
0002
FFFE
0003
FFF8
000B
0004
0003
0007
0002
0007
FFFE
0001
0004
FFFD
FFFB
FFFD
0003
0007
FFFC
0002
FFFC
FFF9
0003
FFF8
FFF4
FFF3
0006
FFF5
FFEC
FFDD
FFD9
FFD5
0009
001C
000B
0007
FFF1
FFEC
FFDD
FFF7
FFE9
FFF2
0007
0003
0008
FFFD
0003
FFF8
0002
0002
FFED
FFFE
0001
FFEA
0014
FFF6
FFEB
0011
001D
001D
0007
0021
0004
0006
FFDD
FFE0
0005
0002
FFD9
0003
0009
0009
0001
FFF9
0007
FFF8
FFFB
0004
FFF9
FFEE
FFF0
FFEC
FFEC
0008
FFE9
FFFD
FFD7
FFF5
FFEC
FFEA
FFF7
FFEF
FFE2
FFE4
FFDF
FFFB
000E
FFF7
FFEB
FFD6
0007
FFFD
0001
FFFC
0001
0006
FFD6
FFE1
0011
FFF6
0009
000C
0001
FFF0
0001
0012
FFFE
0003
000B
0003
FFF5
0000
0009
FFF5
FFFF
FFF4
FFBA
FFD4
FFEA
FFFD
FFF8
FFFB
0004
FFE5
0014
0003
FFF9
0004
FFFB
FFF0
FFF3
FFFD
FFFE
0000
000A
0009
FFF8
FFFE
FFFD
0004
FFF6
0002
0006
FFFA
FFF9
FFDE
FFEC
0004
0008
FFFD
FFE6
FFE0
FFE3
FFF5
FFF6
FFED
FFF3
FFF5
0009
FFFE
FFFE
0002
0001
FFFF
0003
FFFE
FFF9
FFF2
FFFD
FFF7
FFF0
0000
FFDA
FFEA
FFDC
FFED
FFFD
FFE3
0008
FFC5
000F
FFEF
FFDF
FFEA
FFF6
FFEE
FFF7
FFFB
FFF2
FFF7
000A
0000
0004
FFFE
FFFB
0001
FFFA
FFFD
FFEE
FFEC
FFC7
FFE9
0001
000A
0007
FFE6
FFE9
FFED
FFEF
FFEF
FFF4
0000
FFFB
FFFF
FFF4
FFF1
FFFF
0004
0011
0014
0001
FFFF
FFFC
FFFA
FFF2
FFF7
FFF0
FFD1
FFBC
FFDC
FFEA
0002
0000
FFE2
FFDA
FFE1
FFF1
FFF4
FFEA
FFF9
FFFB
FFF0
0001
0002
0002
000B
0004
0018
000F
0004
000D
FFF5
FFF4
FFEC
FFE9
FFCE
FFB9
FFCF
FFE0
FFF0
0007
FFFB
FFDE
FFE9
FFEF
FFF8
FFFC
FFF1
0001
0002
FFFC
0006
0004
000D
0015
001C
0010
0017
000F
000F
FFF2
FFDE
FFD7
FF9B
FFA8
FFC2
FFDB
0016
0002
FFF3
FFDA
FFF1
FFF1
FFFB
FFF2
0002
FFFE
0004
000E
000B
0012
000A
000F
0021
0016
0011
000D
0011
0000
FFF6
FFE2
FFB6
FFBE
FFD3
000D
FFFA
0007
FFE6
FFDC
FFFF
0003
000E
000C
0004
0004
0007
FFFE
0003
0002
000F
0021
001A
001D
0018
001B
0014
FFEC
FFE3
FFE1
FFF0
FFFA
0004
FFF8
0000
FFF8
0002
FFDD
FFFC
FFF3
FFFA
0002
FFF9
FFF2
FFFE
FFFD
FFFF
000D
0005
0017
0025
0014
0024
0016
FFF9
FFE4
FFD5
FFDE
FFF0
FFF2
0007
0049
000F
FFF9
FFE5
0003
FFF2
0006
FFF9
FFF9
FFFC
0002
FFFE
FFEA
0003
000B
000C
0018
001B
0013
0010
0000
FFEC
FFC8
FFD9
FFDD
FFEF
000B
0019
0012
0008
0008
FFF6
FFF9
000F
0017
FFFF
FFF4
FFFA
0003
0004
FFFE
0009
FFFD
000E
001B
0018
0017
FFFE
FFDF
FFD7
FFD0
FFE1
FFEB
FFF9
FFE2
002C
0043
001A
FFFB
0003
000F
FFFF
FFF1
FFFC
FFE8
0001
FFFE
000F
0010
0001
0006
0009
0021
000E
FFFF
FFEF
FFE4
FFDB
FFED
FFF3
FFF4
FFFF
000C
0019
0062
001A
FFFA
FFF7
0017
0012
FFDF
FFEC
FFD7
FFF0
0009
0005
000E
0006
000E
000C
000F
0001
FFF3
FFE5
FFE3
FFEE
FFF1
FFFC
0008
FFF8
FFFC
0012
003C
FFFD
FFFF
FFFA
0006
0011
FFFD
FFF3
FFD4
FFF9
0013
001A
0005
0006
0000
000B
000A
FFEE
FFF0
FFEA
FFF8
FFF3
0010
0002
0010
0015
0017
000F
0026
0018
0005
FFF2
0004
000A
000C
FFD6
FFEE
FFFC
FFFD
FFFD
0000
0004
FFF0
000B
0001
FFFB
0008
0002
0002
000C
0002
0006
0004
000E
FFEE
0016
003C
FFF9
0005
000F
FFFE
FFF8
0011
FFE0
FFF6
0005
0002
0000
0003
0000
0002
FFFA
FFFE
0006
000B
0016
000D
0009
0008
0005
0000
0001
0012
FFF8
002C
FFFB
0005
0003
FFEC
0003
FFF7
0002
FFF1
FFFA
FFF9
000A
FFFD
FFFF
FFF6
FFF6
FFFE
FFF9
0004
0005
0011
000B
0009
0017
0005
0017
001A
0015
FFF9
FFFC
FFFA
0002
FFDE
001A
FFEF
0024
0022
FFFB
FFF5
FFFA
0004
FFFC
FFE2
FFF0
0001
FFFB
FFFD
000F
0012
000B
000D
000F
0004
0014
0019
0022
0010
FFFD
0003
FFFF
FFFA
FFF0
FFE9
FFED
FFF0
0007
0006
FFFA
FFF3
FFFE
0003
0001
FFF7
0000
000D
0015
000F
001E
0005
0011
000C
FFF4
FFEB
FFEE
0025
FFF8
0004
0003
FFFE
FFC4
FFDA
FFE2
FFF5
FFF6
FFFD
FFF7
0004
0004
FFFA
FFF8
FFF9
FFFB
FFFD
FFFE
0015
000F
0007
0002
001D
000D
FFF6
001F
FFFD
0008
FFFD
FFFD
0005
FFF0
000A
FFE6
FFEC
FFEB
FFE1
FFD8
FFD5
FFDE
FFD9
FFE5
FFFC
FFE5
FFEF
FFDB
FFE9
FFD8
FFEF
0004
FFF4
FFF1
FFD8
FFF9
FFFA
FFF8
0006
0004
FFF8
FFFD
0020
0002
FFE7
FFF8
FFEB
FFEB
FFF5
FFED
FFE3
FFC0
FFD8
FFD7
FFD9
FFE6
FFF2
FFD9
FFEC
FFED
FFF3
0010
FFFE
0000
0007
0003
FFFD
FFFD
FFF8
FFFC
FFFD
0004
FFF5
FFEA
FFDF
FFE9
FFD0
000B
000A
FFF1
000C
0009
0005
FFF6
0003
FFF6
FFFD
FFE8
000E
FFF9
0005
0001
FFFE
FFFE
FFFC
FFF9
0001
FFFC
0003
0007
FFFF
0002
FFFB
0001
FFF9
FFF9
0007
0004
FFFA
FFFD
FFF9
0007
FFFB
FFFA
FFF7
FFFE
FFF7
0006
FFFD
FFFD
0007
0003
0000
FFFD
0007
0008
0001
0005
FFFD
FFF5
0005
FFF1
0002
0005
FFF4
0003
FFE3
FFE2
FFCA
0001
0000
0005
FFFB
FFEF
FFF0
FFF5
0004
FFFE
FFFE
0002
FFFF
0001
FFFE
FFFD
001C
FFFF
FFF4
FFDE
0002
FFE0
FFE9
FFEE
FFEC
000B
FFC9
FFE4
FFC7
FFD4
FFF0
0005
FFBD
FFC5
FFDD
FFD0
FFD6
FFE8
FFFA
FFF8
FFFF
0001
FFF8
FFF9
0002
FFF6
0013
0011
FFEE
FFC8
FFC3
FFCC
FFD5
FFD7
FFE7
FFED
FFFE
FFE4
FFF0
FFF6
FFF5
000C
0009
FFFA
FFDA
0013
FFFD
0008
FFFD
FFFD
FFFB
0001
0003
FFEC
0003
0013
FFF6
FFF8
0000
0010
0014
0016
0010
0010
0018
000C
0017
0007
0002
0016
FFFC
0008
0020
0017
0037
FFFF
FFFA
FFF9
0002
FFF0
FFCE
FFF0
FFF0
000C
0006
0004
FFFB
FFFB
000B
0001
0008
000C
0018
0015
0005
0014
0014
000C
000C
000D
0015
001B
FFEF
FFFD
0004
FFFF
000C
FFED
FFF0
0017
FFFC
0005
0005
FFF9
FFF7
FFF8
0000
FFF7
FFFB
FFF5
FFF3
FFFE
FFEA
0003
FFFE
0003
FFFF
0027
003C
004F
001E
FFFD
FFFF
0016
FFCA
FFDE
000D
0019
FFF1
0000
0018
0001
0008
FFF7
FFF2
FFF0
FFED
FFF5
FFF1
FFFA
FFF9
FFFA
FFFC
0009
FFFF
001A
002A
0044
002B
0011
FFEF
FFDA
000C
0016
FFF4
0000
0008
0011
FFFE
0007
FFFB
FFFE
0009
0003
FFED
FFEC
FFF8
FFF3
0006
0002
0008
0012
FFFB
000E
0045
0074
004E
0023
FFF9
FFDB
0013
FFE5
FFFA
FFFC
0004
0012
0017
000B
FFFE
0007
FFFB
0001
FFE7
FFE9
FFE9
FFF7
FFF5
0004
0005
000F
0017
001F
002B
0086
0015
FFE3
0001
FFFB
FFFE
FFF2
0010
FFEC
FFE8
0004
0008
0014
0011
0007
000F
0011
0002
FFFB
FFF2
FFF5
FFFC
FFFD
FFFB
000B
0004
0012
0031
0034
000D
0021
FFF8
FFE4
FFF6
FFE2
0008
0007
000A
0001
0016
0018
0012
000E
0021
002D
0019
000B
000A
FFF2
FFF5
FFFF
FFE2
FFE4
FFEE
0012
003F
003C
0053
0007
FFF7
FFEA
FFFC
FFE6
FFFA
FFFC
000F
001E
000C
0009
0016
0016
0020
0036
0021
001F
000B
FFFF
FFF3
FFFE
FFFF
FFFC
FFE9
0017
001F
001B
FFF7
FFFA
0007
FFEC
FFD2
FFD4
FFEB
0009
000B
0008
0011
0007
0007
0007
002F
0020
001A
0024
0003
0003
FFFA
000A
FFF2
FFFA
0005
0004
FFE6
FFDE
FFFF
FFDA
FFF9
FFE7
FFDF
FFC7
FFF2
FFFF
FFFE
FFF7
FFF7
0003
000A
000D
001B
001E
001C
001E
000E
0005
FFEE
FFEA
FFE3
FFF6
FFF8
FFD0
0017
FFEE
FFCD
FFFA
FFFE
0016
000A
FFEA
FFE0
FFDA
FFE7
FFEC
FFFB
0003
FFF4
0006
0014
0025
0030
0011
000C
FFFA
FFF4
FFF9
FFEF
FFEB
FFDC
0005
FFE6
FFFE
FFEC
FFF3
0008
0002
0017
FFDE
FFCA
FFCD
FFE7
FFDC
FFEF
FFEE
FFEF
0003
0014
0012
0020
000B
FFFE
FFEC
FFF4
FFEF
FFE2
FFE6
FFFA
0001
000A
FFE0
FFCC
FFE7
0005
FFFC
FFDD
FFF8
FFE8
FFEA
FFF9
FFED
FFF0
FFFF
FFFB
FFFC
0000
0012
0009
FFF7
FFFA
FFFE
FFEF
FFFA
FFEF
FFFA
FFF5
FFF0
000E
FFA7
FFCB
FFFC
0005
0002
FFE2
FFFE
FFF6
000B
0005
FFF5
000C
FFFB
FFF8
FFFD
0005
0009
0008
FFF9
FFFC
FFF2
FFEF
0003
000D
FFF9
001E
0012
FFFE
FFB9
001B
FFFB
0001
FFFD
FFFE
FFE1
FFFB
000C
0006
FFF4
FFFE
0004
0002
FFFE
FFF5
FFFB
FFFA
0007
0008
FFFA
000F
FFFE
FFF7
FFFB
0010
0012
0003
FFC0
FFDB
0006
FFFC
0007
FFD0
FFD8
0000
FFFA
000D
0007
0008
0004
0001
FFFE
FFF7
0000
FFFF
000B
000A
000C
000E
0001
000D
0012
001D
0024
FFC5
FFE3
FFEA
0001
0006
0003
FFEA
FFFC
FFE2
000B
0012
0005
0009
0005
FFF5
FFFD
FFFB
0010
0008
000E
0004
0011
000F
0001
001A
000D
0010
000E
FFD4
FFBA
0009
0003
0001
0001
0004
FFF2
FFFD
FFF2
0001
000C
FFED
FFF5
FFFE
0007
0007
0008
000E
000D
0005
0013
0013
0015
0002
000B
FFF4
0007
FFDB
FFC6
0002
FFF8
0008
0003
001C
FFF6
0012
0002
FFF5
FFF5
0006
000C
0008
0014
000E
0018
000E
0015
0023
0015
000B
001F
0007
FFFF
FFD5
0012
FFDB
FFDB
FFE9
FFFB
0003
FFFC
0011
FFF7
FFEF
FFE0
0001
FFFB
000F
0017
0013
0023
001A
0012
001D
0020
001D
000A
0027
0021
FFF8
FFF4
0001
001C
FFFB
FFDA
0006
0007
0001
FFFA
FFFE
001D
FFF3
FFD2
0007
FFEA
0002
FFFA
0014
0003
0005
0011
FFFD
FFF8
FFFA
0000
0000
FFFA
0007
FFEF
0024
0022
0023
FFF8
0006
0007
FFFC
FFFD
FFFF
FFFA
FFF5
FFE1
FFD4
FFC2
FFC1
FFF8
FFD8
FFEA
FFEE
FFDD
FFDB
FFFD
FFE2
FFE5
FFF7
FFD1
FFF2
FFE7
FFF9
FFFA
FFFF
0001
FFFB
FFFD
FFFA
0006
0004
FFFA
FFFA
0001
FFF7
FFE5
FFE5
FFD6
FFCC
FFF8
FFE3
FFDB
FFDA
FFDD
FFFD
FFCF
FFB4
FFE2
FFE1
FFE0
FFFD
0003
FFFA
0004
0009
FFFA
0003
FFFF
FFFE
0004
FFFE
FFFF
0006
FFFD
FFFA
0005
0003
FFFC
0006
FFFA
0018
0004
0007
0002
0002
0006
0005
FFFE
0004
FFF9
FFF9
FFFF
FFFC
FFFD
0002
FFFB
0008
0008
FFFA
FFFF
FFDD
FFD6
FFEF
FFED
FFDA
FFCF
FFD3
FFCE
FFE8
FFF1
000B
FFE8
FFDA
FFD6
FFDB
FFE5
FFF1
FFE7
0008
0002
FFFC
0004
0005
FFFF
0005
FFF8
FFDF
0001
FFDF
FFDD
FFD7
0006
FFC5
FFF4
FFF4
FFD7
FFF1
FFD7
FFF7
FFD3
FFE9
FFC8
FFEB
FFEB
FFE4
FFE0
0008
0021
0005
FFFE
FFFD
0000
FFFF
0005
0006
003B
FFDB
FFF2
FFF9
FFFC
0000
0013
0002
FFF2
0006
FFFA
FFFC
0008
FFFA
FFE9
FFF6
FFF4
FFF9
0003
FFE0
0018
0003
0007
0006
FFFF
FFF8
0001
FFF9
002C
0020
000C
0000
0008
001E
0008
0018
0006
0012
000F
000A
0008
000D
0002
0006
FFFC
FFFD
FFE4
0008
0016
0003
FFFE
FFFA
0001
0002
0024
0015
FFF1
FFE8
0019
0013
0016
0012
002A
001A
0007
000E
0008
0023
000F
000D
000A
FFFC
FFF6
FFED
FFF6
FFF3
0017
FFE6
0000
0007
FFFE
FFF4
0022
0002
000B
002E
000B
0020
000D
000E
000A
000F
0010
0010
0015
0005
0011
FFFF
FFFF
FFFE
FFFC
FFFF
0000
FFEF
0008
FFF5
FFE5
0001
0021
001E
0023
001E
0029
0033
000C
0022
001B
000C
0006
FFFE
0013
0002
0009
000C
0008
0004
000D
FFFE
000A
000E
000E
0017
0012
FFFA
0012
FFF9
FFF6
0020
002A
002A
002E
001A
0012
0016
0016
0019
0010
0009
000A
0004
000B
000D
0005
0013
0010
001D
0005
000A
001F
002F
001F
0004
000A
0001
0003
0007
0005
0019
0033
000F
FFFF
000D
0016
0002
000D
0001
0003
FFF8
FFFD
0003
000F
001D
001F
0019
0007
0016
0014
0003
0021
000B
FFF5
FFFD
FFDF
0008
002C
000D
000F
001C
000C
FFFE
0004
FFFE
FFFA
FFF9
FFED
FFE9
FFEE
0008
000C
000C
0017
001A
0013
000E
FFE5
FFEA
FFE6
FFFC
0014
0006
FFF7
0007
003A
FFED
0004
0004
0000
0001
0004
0001
FFFC
FFFA
FFD7
FFE6
FFF4
FFFE
0003
0002
000B
0014
000B
002E
FFF9
FFEE
FFEE
FFF7
FFE1
FFF6
FFEF
0004
0016
FFD8
FFFC
FFE3
FFF3
FFF6
FFF5
FFFE
0010
0001
FFEC
FFE5
FFF4
0000
0004
FFFA
001E
0016
0004
000D
FFF7
0011
001E
0024
FFDD
0007
0009
FFF1
FFFF
FFD9
FFE1
FFDF
FFFD
0007
0006
0017
0012
FFF5
FFFE
FFFE
0003
0008
FFFE
0010
0009
0011
FFFF
FFF4
FFF4
0002
0036
0052
002C
FFFA
FFF4
0003
FFED
0007
FFFB
000F
001A
0006
0007
0003
0007
000A
FFFF
0005
FFFC
0000
001E
0022
0026
000A
000C
FFF0
FFE4
FFF9
000B
0012
FFFF
0001
FFEA
0010
0012
002F
0005
000D
0012
FFFF
0003
000A
0004
0005
0009
0002
000D
000D
0021
0019
0023
0000
FFFE
0015
0001
FFF8
0007
003C
0017
0006
FFFC
001D
0011
000A
0009
0006
0028
000C
000D
0007
FFF6
000C
0011
0006
000A
0015
0027
0022
0005
0019
000E
0008
0018
0007
0000
0034
0016
FFFC
000A
003B
001B
0015
FFF0
000C
0007
000D
FFFD
FFF2
0000
0013
000E
FFFE
000E
001C
0022
000E
000E
0010
000A
0005
FFFF
FFF2
0018
0015
0006
FFFF
0005
001F
FFFE
0016
001A
0012
000F
FFF8
FFFC
FFF9
0004
FFFD
FFFE
0008
0011
0021
0014
FFFF
0016
000E
0003
000F
FFF8
000D
FFFC
FFF9
0021
0001
0002
FFEC
0007
001A
0032
000C
FFFC
0000
FFF3
FFF0
FFE6
FFF9
FFFD
0000
FFFC
FFFC
000F
0003
FFF5
FFFB
000E
0004
0004
FFFB
0018
0014
0003
0001
001C
FFF6
000E
0016
0022
0017
0008
FFFD
FFFF
FFF3
FFF3
FFF4
FFFC
FFFF
000A
FFFC
0007
FFFD
FFFD
000D
000D
0004
FFF8
FFFF
FFE7
FFF1
0008
0001
000E
003F
FFF8
0016
0007
0005
FFEE
FFF3
FFFE
FFEC
FFFC
FFF4
FFF6
FFF3
FFFB
0000
0001
0001
0012
FFFF
FFFF
000A
0016
FFE5
FFEE
FFE0
0006
0001
FFF9
002C
000C
FFF8
FFCE
FFFE
0008
FFFE
0004
FFFD
000C
0002
000C
FFF8
0000
000C
FFFB
FFFF
0019
0004
FFF9
0007
000F
FFDE
FFEF
FFF5
FFF7
FFFC
FFFB
0019
001D
000D
FFDF
FFF9
0002
000A
000A
0010
000F
0009
000F
000E
FFFC
0010
000B
0017
0009
0010
0019
000E
FFF7
FFFE
FFFD
FFE3
FFFF
0001
0000
0006
0019
0004
0011
0014
0015
0010
0013
0016
002C
001E
0023
0024
0006
0020
0006
000B
FFE5
FFF2
0011
0017
FFC7
000A
0023
0001
0002
0003
FFFE
0000
FFDB
FFE7
FFEF
0020
002F
FFF6
0017
002F
001E
0009
0020
000B
0025
0011
FFF5
FFF2
FFF8
FFD9
FFBA
FFDD
FFD0
FFDA
0005
0006
FFF8
FFFA
0008
0004
0008
FFE4
FFD2
FFE9
FFF2
FFD8
FFB2
FFE7
FFD1
FFFF
FFDE
FFDB
FFC9
FFD9
FFC6
FFEB
FFCD
FFB8
FFBA
FFC2
FFDE
0005
FFFB
FFFF
0005
0003
0001
0000
FFF9
0007
FFFA
0006
FFD5
FFE1
FFEF
FFE4
FFE8
FFD0
000D
FFE0
FFCC
FFEA
FFFC
000D
FFD7
FFF9
FFF7
FFDE
0001
FFFE
FFFA
FFFD
FFFF
FFFB
FFFC
0006
0006
0005
FFF9
0005
FFFC
0007
FFF9
0001
FFFF
0000
0010
0003
FFFB
FFFB
0001
0001
0008
0006
0000
0001
FFFD
0000
FFFF
0001
0000
FFFC
0002
0009
FFFE
FFFE
FFFF
0026
0027
0023
001B
001A
0026
0031
0034
0026
0030
0043
0030
001E
0020
001F
001A
0015
001F
FFFC
0004
FFF9
0004
0007
FFFC
FFFE
FFFA
0002
0005
0027
0037
003C
003D
003B
0037
0039
002C
0030
000B
0029
000C
FFFD
0004
001D
001D
0036
0031
0034
0019
0005
FFFB
0005
0009
0010
0008
FFFF
0021
0034
0028
0033
0045
003D
005E
003F
0048
0024
001A
0011
0014
0026
FFFB
0000
FFE4
FFF0
FFF0
FFFF
FFDC
0003
FFFC
0008
0008
FFFD
FFF7
002A
002E
002B
0009
0021
0023
002A
0019
0014
001B
0017
0015
000F
0003
000C
FFFB
0007
FFD3
FFD2
FFC6
FFAE
FFFA
FFF8
0000
0006
0008
FFFC
0024
002C
001A
0007
0010
0009
0000
000B
0000
0017
001E
000E
000F
0014
FFFD
FFF9
0014
FFF5
0008
FFED
FFD4
FFDD
FFF4
002C
0008
0006
0003
000B
002E
000E
FFFD
000C
FFFF
0004
0014
000E
0010
0003
0022
0018
0014
0021
0008
0012
FFFE
000B
FFFB
FFED
FFFA
FFE3
0009
FFEC
0010
FFFF
0021
FFDE
000B
0020
000D
0002
FFFB
000A
FFFB
0007
FFFE
0016
0006
0020
0022
0008
0004
0002
0003
FFEB
FFFC
FFF0
FFD6
FFE4
FFE8
0023
0006
FFF4
FFEB
FFE8
FFF8
0022
FFFF
0001
0005
FFFE
FFF9
FFFE
0000
000E
0014
0013
001D
000F
0009
FFF3
FFFC
FFFD
0003
0001
FFE2
FFCF
FFD2
0009
0012
0007
FFF9
FFD7
0016
0032
000C
FFFB
000A
FFF7
0003
FFF4
FFFA
FFF5
0003
0021
000F
0000
FFFC
FFF9
0005
0003
FFFA
0013
FFF3
FFD1
FFFB
FFEB
FFD8
FFFE
FFDB
FFE0
002D
000C
0012
0012
000F
FFF1
FFF6
FFF4
FFEA
FFEB
0004
0017
FFF9
0004
0007
000D
000E
000C
FFFB
0010
0002
FFDD
FFB7
FFD8
0002
FFE0
FFDC
FFE5
0017
0015
0016
FFEA
FFEF
0003
FFE9
FFEA
FFF2
FFFA
0017
001D
0000
FFF7
0002
0007
0017
0028
0014
0032
000D
000B
FFF5
FFC9
0016
FFEC
FFED
FFD5
FFDF
FFEF
0012
FFEF
FFFD
FFEC
FFFF
FFF3
FFE7
FFFE
0011
001D
0009
FFF7
000A
0015
0009
0008
000E
001D
001C
0037
0006
002A
001E
0004
FFE3
FFDC
0008
FFF6
FFEF
FFFB
FFED
FFED
FFFD
FFE9
FFE8
FFFF
0024
0016
0010
0010
000C
FFFE
0006
FFE7
FFF3
FFF9
0028
0024
0004
FFCA
0005
FFFA
0000
FFDF
0019
FFCA
FFED
FFFB
FFE5
FFFB
FFEE
FFF4
FFF3
0008
001A
0013
001B
0002
FFF9
FFF9
FFF1
FFEB
0001
FFE3
FFF6
FFFF
FFF6
0029
FFF8
FFFB
0011
FFDE
FFF1
FFFF
0007
FFFE
FFF8
FFEC
FFF4
FFEC
FFF9
000E
001F
0018
FFFA
0003
FFF9
FFF1
FFF1
FFF2
FFF5
FFEB
FFF5
001F
002D
FFF1
0012
0000
FFF9
002E
0006
0015
FFF8
FFF2
FFFA
FFE7
0004
0008
000A
0015
000F
000C
FFF9
FFF6
FFFA
FFFA
0000
FFFB
FFFB
FFFF
000F
001D
002B
0012
FFFF
0009
0018
0010
0022
0019
0009
FFED
0002
0000
0000
000F
000F
0015
FFFD
FFF2
FFEA
FFF1
FFFC
FFF8
0005
FFF2
FFF3
000D
0010
FFF7
0015
003F
0007
0001
0013
0010
000A
FFF2
FFE7
FFFA
FFF9
FFF9
0013
001A
0009
0005
FFF5
FFE8
FFFB
000C
000C
0013
0012
FFF3
0001
0014
0028
FFFF
003A
000C
0014
FFFF
0012
FFD4
FFFC
FFF0
FFF9
FFF9
0008
0007
0014
001B
FFFD
0009
FFFD
000E
0007
0014
001B
000F
0015
0014
0016
002F
0033
FFF0
0012
002D
0003
FFFF
FFE8
FFF7
FFF8
000D
000F
0007
0016
000E
0019
0014
0002
0002
0011
000D
0007
0001
0009
0013
0016
0022
001F
0000
000B
FFE7
FFF0
0019
FFF8
0002
000E
0026
000F
000D
FFF8
0014
0026
0008
FFFE
000F
000D
0008
001D
001A
0011
0011
0010
0016
000B
FFF7
FFFA
000B
0008
0011
0010
FFFB
FFFE
FFFB
0006
0018
0043
000E
0004
0005
000C
0004
0006
0011
000D
000E
0019
0013
001B
0017
0007
0010
000C
0007
FFFE
FFEE
FFDB
0011
0004
0008
0000
FFF9
FFF9
0021
0030
0006
FFF8
FFF9
FFF9
0016
0007
0008
0011
0018
0011
000C
0016
0005
0005
000C
000C
0017
FFF3
0004
FFDE
001C
FFFD
0010
0001
0007
FFF8
0011
0006
0019
FFF9
0002
0006
FFEA
0000
0004
0013
0000
FFFE
0009
0010
0018
0016
0019
0003
FFF9
0028
FFF3
FFE4
001F
001B
0002
FFFD
0008
0007
0001
FFC9
FFF2
0003
001B
0020
0024
0020
0012
000C
0018
0017
0012
0000
0014
000A
0012
001D
0017
000C
FFF5
FFD4
FFE2
0002
FFF9
0002
0002
0005
FFF8
FFF9
0016
001B
002A
0029
0005
001E
001B
0014
0010
0021
001E
000E
001A
0025
002B
002E
0026
0008
001E
002A
FFFF
FFFF
FFFB
0001
0002
0004
FFFD
FFFC
0005
FFE4
FFD9
FFCE
0011
FFFC
FFF2
0023
001B
FFD3
001B
000F
0001
FFEB
0001
0009
0001
0010
0002
FFFE
FFF9
0003
0004
FFFB
0003
0008
FFF8
FFFC
FFFD
0008
0001
FFFB
0004
FFFB
FFF9
FFFC
0005
0003
FFF0
FFFF
0007
0001
FFFD
0002
FFFD
0005
0003
0009
FFFF
0003
FFFF
FFFC
FFFE
0006
0002
0002
FFFA
FFFA
0020
002E
0015
0016
001F
0024
0030
0030
0000
FFF9
FFF5
0016
001C
001C
001B
000F
0010
000E
0006
0005
0004
0008
0006
0002
FFFA
0004
0018
0004
0020
0020
001E
FFF7
0029
FFF2
0004
FFF7
0010
0002
FFF9
0006
FFF1
0027
001C
0009
002F
0027
FFFE
FFE8
FFFF
0003
0007
FFFE
0000
FFFA
FFFE
FFFF
FFFF
0006
0000
FFEA
FFEF
0000
0001
FFF8
000E
000A
0008
000D
FFF2
0029
0013
FFF5
FFF5
000D
0018
FFD8
0006
0000
FFFC
0001
FFFC
FFFF
001B
FFFB
FFD5
0000
0007
000B
FFFB
000B
FFFC
000A
FFF7
0003
FFFE
0009
FFF3
000B
0004
0006
001D
000A
FFE2
FFEB
FFED
FFFB
0008
0008
FFF9
0023
0024
0019
001F
0008
0005
0000
000D
FFEF
0004
FFF7
0007
0008
0001
0009
0010
0007
0008
FFFD
000C
0003
FFFD
FFF2
0009
0005
0001
FFFE
FFD4
0028
000A
0010
0002
FFFA
FFF9
0001
FFF6
FFEE
FFFD
FFF5
FFEF
FFEC
FFF3
FFEF
FFF6
FFF5
FFF5
0002
0007
0017
0007
FFE6
0013
0006
0000
0002
FFD7
0014
0009
0026
FFFB
001D
FFF2
FFFE
FFF2
FFFD
FFF5
FFEF
FFFF
FFF6
FFF0
FFF4
FFFB
FFF4
FFF0
FFFA
0009
FFFF
0010
0007
000C
0018
0008
0010
000A
0005
000F
0011
0000
FFF9
FFF8
0007
FFF5
FFFF
0008
FFFD
FFF1
FFFC
FFF2
FFF6
FFF2
FFEE
FFFC
FFFF
FFF8
FFF0
0007
FFFC
FFD8
FFF1
0000
0005
001D
FFDD
000F
FFED
FFF2
FFFF
FFF7
FFF1
FFFA
FFFD
0002
0010
FFFE
FFFA
FFF2
FFF0
FFF9
FFFD
FFFE
0009
FFF3
0003
0009
FFE4
FFFB
000D
0005
FFFF
001A
FFED
0001
FFF0
FFE8
0000
FFFA
FFFB
FFF7
0002
0002
0017
0007
0001
FFF8
FFFF
0001
FFF6
0000
FFFF
0012
FFF4
0008
0011
FFCE
FFF1
0006
0000
0021
0005
0008
FFF3
FFF6
FFF9
0000
000A
0005
000A
0022
001E
FFFA
FFF0
FFF9
0000
FFFA
FFFD
FFF8
FFFF
FFF7
FFF6
FFED
FFCB
FFD7
001D
FFFB
0004
0014
0004
FFE1
FFF0
000D
0011
001A
0015
001F
0020
0028
0015
FFF1
FFF7
0003
FFF7
0001
FFEE
FFE6
FFF0
FFFC
0005
000A
FFDE
FFCF
0020
FFFC
0015
001E
0004
0004
0014
0028
0029
000E
001C
001D
0021
0006
FFF2
FFEC
FFF0
FFF7
0004
FFF7
FFF5
FFF5
000C
0005
0012
0002
FFE5
FFE0
FFE6
FFFD
000C
0004
0005
0006
0029
0023
000E
001A
0020
0010
0007
FFFB
FFE2
FFF8
FFF2
FFF9
FFF6
FFFA
FFF6
0000
0011
000F
001C
001D
FFF7
FFE1
FFF8
0008
000A
001B
0002
0000
001B
000E
001C
000F
000A
0006
FFFC
FFFB
FFE0
FFF5
FFF9
FFF8
0001
0001
0005
0009
0015
000B
0020
0005
FFFC
FFEF
FFE1
FFFC
FFFA
0025
FFE2
FFFF
000B
FFFF
000C
0013
0001
0001
0004
FFE9
FFE7
FFF8
0005
FFF9
FFF9
000C
001D
000A
001A
FFF5
000E
0007
FFF4
FFDA
FFEA
0007
FFFD
FFE9
FFF8
0000
0003
FFF1
FFFA
0003
FFFB
0003
FFFB
FFED
FFE7
FFFF
FFFA
FFFE
000B
0005
0002
0006
FFFF
001A
000F
FFEB
0004
FFDB
FFFC
0008
0005
FFE6
0025
FFFB
FFFB
FFF8
0001
0006
0006
0001
FFFA
0003
FFF3
FFFC
0002
0004
0003
FFFF
000D
0001
0016
0008
FFF7
FFEB
FFE8
FFE2
FFE4
FFFA
0003
FFF0
001D
FFE8
0004
0001
FFF3
FFFB
FFFF
0002
0012
000A
0005
0014
000A
000A
000B
0013
FFFB
000E
000D
FFFA
FFE9
0002
FFCE
FFD9
0007
FFFF
0012
FFDD
FFFD
FFED
FFFC
FFFF
0006
0004
000A
0015
000D
001C
000D
001B
0010
0009
0010
0006
FFFA
FFFB
0000
0002
FFF0
FFED
FFE8
0007
0000
0005
0005
FFE2
FFFF
FFDD
0001
FFF9
FFE9
FFFE
FFF8
FFFF
0006
0014
0012
0010
000F
000A
0004
0008
FFFE
0004
FFF1
0008
FFE8
FFD5
FFE7
001C
0001
FFFE
0002
FFED
0016
0009
FFF2
FFEF
FFE9
FFF5
FFFF
0002
FFFB
0007
0007
0005
0012
0003
0006
0000
001A
0007
000A
FFFB
FFF3
FFBE
FFEE
0009
0000
FFFA
0005
0016
0006
0006
0000
0004
0008
FFF4
0007
0007
000F
0003
0001
000B
0010
000A
0001
0009
0000
0005
FFF8
FFD1
FFF2
FFD8
0000
0009
FFFB
FFFD
0006
0001
000E
FFF9
FFFE
FFF8
FFF6
FFFD
000A
0001
FFFC
0000
0002
0000
FFFF
0008
0003
FFF6
FFF6
FFE8
FFFD
FFFC
FFF0
001B
0001
FFFA
FFFF
FFFB
0006
FFF9
FFF7
0021
000A
0003
FFFD
0003
FFEB
FFF0
FFF1
FFEA
FFF8
FFEA
FFEF
FFFB
0002
0006
FFFA
FFEA
FFF7
0006
0015
0010
FFFD
0000
0001
0007
FFFC
FFFC
FFFE
FFE5
FFE2
FFDC
FFEE
FFE6
FFF5
FFF2
FFEB
FFEB
FFE5
FFE2
FFF1
FFEF
FFFB
FFEB
0007
0001
FFF7
FFF2
FFDF
FFFD
FFF8
FFF8
FFFF
FFFF
0006
0002
0005
0002
0002
0001
FFDA
FFD7
0008
FFEB
FFE5
FFDD
0016
FFDA
FFD5
FFF2
FFFF
FFEC
0002
0017
001A
000E
FFF7
FFFB
0003
FFFC
FFFE
0003
FFFD
0000
0008
FFFB
FFFC
0007
FFFF
0008
0003
FFFE
FFFE
FFFF
0011
0012
0006
FFFA
0002
0008
FFFF
FFFE
0006
0001
FFF8
0008
FFF8
0007
FFFE
FFFD
0001
FFFF
0001
0005
FFFE
0020
0025
0027
0009
FFFF
FFF1
0026
FFF6
000A
0014
003F
0004
0010
0022
001E
000E
001F
0020
0001
0008
0001
0005
0004
FFFC
0003
FFFD
FFEB
FFF8
0017
0033
0020
0025
0031
000A
0012
FFF8
0002
FFF0
000C
000B
0034
FFFC
0025
001F
FFFD
0014
0018
0021
FFFA
FFFB
0007
0004
FFFE
0006
0004
FFE3
FFF3
0006
0020
003A
000E
002B
0017
0023
0017
0023
000E
0013
0009
0002
FFF8
0013
0014
0011
0026
001F
FFFB
0004
FFFA
FFFD
FFFC
FFFB
FFF7
FFD8
0001
0010
FFFD
000D
0013
0014
0001
FFF8
0013
0010
0001
0014
0005
FFFE
FFF5
FFFD
FFF2
FFF2
0015
0004
0017
FFF7
FFF9
FFFC
FFFD
FFD7
FFD5
FFC3
FFF6
FFE7
FFFF
FFF3
0011
0013
0009
000E
0015
0005
0007
000C
0013
FFFC
0013
0004
000A
FFFF
0003
0029
0020
FFFE
FFFF
FFFA
000C
FFC9
FFE4
0002
FFDC
0002
FFFC
FFFC
FFF9
0006
0018
000C
0016
000F
0018
0014
000C
000F
0007
000F
FFFD
FFF4
0019
0037
000E
FFF6
0002
FFE5
000C
FFD6
FFF7
FFF0
FFF2
FFEB
0009
000D
0008
0017
000A
000E
0017
0018
001C
0002
0010
0003
0000
0006
0019
FFFC
0032
0013
0003
0006
0003
FFE3
FFF7
FFE3
FFDF
FFE3
FFEE
FFF7
0008
0004
0009
0009
000D
0017
000C
0005
000E
FFF1
FFF8
0003
0006
0009
0013
0036
003F
000F
0015
0012
0004
FFDE
FFDC
FFCF
FFCB
FFF2
000E
FFF9
0005
0004
0013
0011
0013
0015
0009
FFEE
FFF6
FFE7
FFF5
FFFD
FFFC
FFFE
FFFB
001B
0044
0023
FFFD
FFD7
0002
FFF4
000F
FFC4
FFEA
0000
000B
0005
0007
001B
001C
001B
001C
000F
000A
FFE3
FFE7
FFEE
FFFA
FFEC
0003
0003
0014
0025
0054
000F
0021
0020
FFFB
FFEF
FFD8
FFC1
000A
0001
001A
0017
0021
0011
FFFE
0010
0007
0015
FFF8
FFDF
FFE4
FFEB
FFE9
FFF0
FFE9
0000
FFFA
0007
003A
0016
0007
FFDC
FFF9
FFF5
0003
FFF6
0002
000B
0020
0003
000C
0007
0007
0005
FFFE
0004
FFEA
FFEA
FFE0
FFF5
FFF0
FFFB
000C
0001
000B
000C
0028
0043
0038
FFE3
0003
FFFE
FFE9
0024
FFED
FFFB
0005
000A
000B
0007
000B
0008
0010
0005
FFEF
FFF3
FFED
FFEC
FFF8
0005
0001
0005
0013
001F
0018
001D
0013
0023
0002
0002
FFE8
FFF1
FFF1
000A
000D
0015
0008
0008
0010
0006
FFFF
000E
FFEC
FFF4
FFEB
FFE9
FFF6
FFEA
FFFF
0006
0013
0009
002B
000F
003A
0008
0000
FFE5
FFC7
FFF6
0000
0016
000A
000A
0012
000C
0013
000F
FFFC
FFFA
FFE4
FFEB
FFE8
FFF0
0005
FFFF
FFF8
FFFA
FFE4
000A
003B
002D
0003
0021
0000
FFFB
FFD5
0001
FFF1
0009
0001
000C
0003
FFFF
0007
0010
0008
FFF7
FFFB
FFF0
FFF4
0009
FFFC
FFFD
0006
0012
0001
0004
0006
0025
0017
000C
0003
FFF2
FFFC
000A
FFEA
000C
000E
FFF8
FFFE
0018
0024
0011
FFFD
FFEF
FFE9
0004
FFFF
000B
0005
0004
0006
FFF4
0001
FFFC
0027
0034
0036
0008
0001
FFE9
FFF9
FFE2
FFFB
0007
000C
0011
0011
000D
0028
0012
0003
0003
FFF9
0000
0006
000A
0000
0007
FFF8
FFFB
0012
0021
0037
003C
FFE7
0019
0006
FFF3
000F
FFEA
0007
0001
0009
0012
0019
001F
0026
001F
0018
0011
0004
0010
FFFF
000E
000E
FFFD
0019
0007
002C
0013
000E
002E
0007
FFFB
0003
001A
0011
FFF4
FFFE
0011
FFFE
000D
001B
0013
0025
0015
001C
0013
0005
0002
0002
0003
0012
000E
000E
001C
0027
0023
FFFA
FFF8
FFFE
0000
0005
FFF5
0014
0002
0009
0004
000A
000C
0006
0017
000D
0019
001A
0011
001A
0011
000B
0010
0007
000E
000A
001A
0023
003B
0003
FFFF
0006
FFF8
0002
0008
000C
FFFA
0001
FFE5
0001
FFFB
0012
FFFC
0013
0013
0017
0025
0018
000F
000B
0002
0016
FFFC
0009
FFF5
001A
0018
FFF7
000A
FFEE
0002
0002
FFF8
FFE0
000F
FFFF
FFFB
FFF0
FFF2
0008
0007
0011
000B
001B
0010
0013
0010
0010
0004
0000
000E
0010
001B
0034
003A
001C
002D
FFDB
0000
0000
0006
FFF3
FFDE
FFE1
FFE7
FFE4
FFE2
FFED
000E
0001
FFFC
0013
0001
0008
0015
0012
0008
001D
001B
0000
0002
0008
0011
0034
0023
FFF8
FFF8
FFFD
0007
0006
0019
0006
FFD1
FFEC
FFE9
FFEC
FFE4
FFF2
FFF8
FFF3
FFFC
FFEA
0009
0009
0011
FFF4
FFF9
FFFD
FFF6
FFFF
0006
0020
FFF9
FFFD
0001
0008
FFFA
0002
0003
0011
000A
FFEC
FFCB
FFC8
FFED
FFE8
000A
0003
FFE9
FFF2
FFED
FFE6
FFE9
FFEE
FFEF
FFFF
FFF0
FFEB
0017
FFFA
0008
FFFE
0003
0000
0003
0001
0002
0002
0001
FFFA
FFEF
FFF3
FFD8
FFD4
0017
0002
FFDA
FFDE
FFDC
FFDB
FFDB
FFC8
FFF0
FFEC
FFDE
FFD9
0007
FFFB
FFFC
FFFD
0003
FFFC
0008
FFF8
0001
FFFD
FFFB
FFFF
FFFC
FFFD
0006
0008
0008
0001
FFF9
FFFA
0009
0007
FFF8
0001
0007
FFFE
FFFF
0006
0003
0002
FFFC
0003
FFFC
FFFF
FFF8
FFFA
0004
0005
FFFB
FFF8
FFE2
FFEE
FFF1
FFF7
FFE0
FFDB
FFE5
0003
0008
FFF3
FFD7
FFF6
FFE1
FFE1
FFEB
FFF1
FFF3
0001
FFFD
FFFD
FFF8
0009
0005
FFFB
0004
FFF9
0002
FFEE
FFDB
FFD8
FFB7
FFB3
FFB7
FFD8
FFF6
FFCE
FFCF
FFF6
FFFC
FFF6
FFF3
FFE3
FFEE
FFE4
FFD9
FFDD
FFF4
FFF9
0004
0000
0002
FFF3
FFFB
FFFE
0026
FFE9
FFC5
FFE5
FFDA
FFF3
FFDA
FFE8
FFDA
FFFE
FFF5
FFFF
FFFF
0009
FFFD
000B
0001
FFFD
0005
FFF5
0027
0000
FFF9
FFFA
FFFA
FFFD
0003
FFFA
FFF8
FFD3
FFEC
FFFF
FFF1
FFEA
FFFA
FFF4
FFFE
FFF8
FFF9
FFF6
FFEE
0009
0000
FFFA
000C
FFF6
0001
0020
0004
001D
FFFA
FFFC
0001
FFF9
0017
FFF8
0022
0006
0003
FFF4
0003
FFEA
0016
0003
000F
FFFB
0009
FFFD
FFF8
FFE8
FFEE
FFEB
FFEB
FFEC
FFF7
FFED
0004
0002
0005
0006
0001
0026
0035
000F
FFFB
0005
FFF9
0008
0005
0014
001E
0017
0025
001A
0018
001B
0019
000F
0006
0008
000C
FFFF
FFE7
0002
0009
0003
FFF0
FFF9
FFED
FFFB
0022
FFDC
FFE7
0006
0006
0007
001A
0011
0018
001C
0019
0021
0029
0023
001C
0015
0016
000A
FFFF
FFEF
0022
0006
FFFC
FFF9
FFFC
FFFE
0022
FFE6
FFF9
FFDA
FFF8
000C
0004
0023
0009
0007
0017
0016
0015
0022
001C
0020
000C
001E
0007
0014
000D
0009
FFFF
0023
0022
0010
FFEF
0006
0018
000E
001F
FFF7
FFFF
001A
0013
0019
000E
0010
0014
001C
0025
0022
0011
0010
0010
0021
0014
0015
000C
0006
0006
0022
0029
001D
001E
FFFE
0022
0012
0008
000B
0010
0009
001A
0011
000F
0014
0017
0020
001B
0030
0016
000F
000A
0015
0014
0016
0017
001A
002D
0013
0047
0027
0013
FFFE
001A
0009
0022
0007
FFFD
0013
0010
0016
0010
0024
0022
0012
0034
0026
002A
0013
0020
0017
0008
0012
000D
000F
0008
FFFF
0025
0043
FFFC
0006
0013
0000
0011
0022
0006
001E
0013
001B
0017
0012
0011
0003
000F
002A
002B
0019
0013
0012
0007
000D
FFFA
0007
FFE5
FFCC
FFEE
0000
FFF9
FFFE
FFF7
0023
0019
002A
0013
000F
0025
0010
0003
FFFE
0005
FFE5
FFFD
0017
000B
0015
000B
000D
0000
0001
0005
FFFD
FFD1
FFF1
FFCB
FFDD
FFF7
0001
0019
000B
001D
0033
0008
000B
FFF8
0002
0002
0003
FFDE
FFE7
FFFE
0009
0002
0002
000D
000E
0003
FFFA
FFFA
0001
0001
FFF6
FFE1
FFE0
0000
FFFF
0015
0012
FFFC
0006
FFFD
FFFA
FFFC
FFF6
FFF1
FFE7
FFE7
FFEB
FFF8
FFF9
0007
0000
000B
000E
0001
0008
0005
000B
0011
FFEE
FFA7
FFD4
FFEA
0005
0003
FFFD
FFF1
000D
FFED
FFF2
FFE1
FFF4
FFDE
FFDD
FFE8
FFF5
FFF8
FFF0
FFF9
FFFE
FFFD
0002
FFFC
0002
FFE8
FFF3
FFF6
FFE5
FFBA
FFE2
FFF8
FFFB
0011
FFCC
FFFE
000E
FFF0
FFF3
FFE5
FFE8
FFED
FFE2
FFEF
FFF2
FFF3
0000
0003
FFF8
0005
0004
FFF9
FFFC
0003
FFF3
000D
FFF7
FFD3
FFD2
0007
0008
0013
0001
000A
0004
FFF9
FFF6
FFE7
FFF7
FFF0
FFF9
0001
FFE7
FFF5
FFF3
FFFE
FFFA
FFFD
FFFB
0001
0006
0004
0004
FFE9
FFD5
FFD1
000F
FFE0
FFFA
0019
000A
0015
FFF3
FFFD
FFEF
FFE5
FFF3
FFF1
FFFF
FFE8
FFF7
FFFD
0001
FFF6
FFFE
0000
FFF7
0006
0008
FFEA
FFE0
FFFA
0009
FFFE
FFE2
0006
FFFD
0012
0000
FFFC
FFE7
FFF4
FFF6
FFE6
FFF4
FFFE
FFF1
FFF8
FFFA
0003
0000
FFFB
FFFD
0006
FFF4
0004
FFF1
FFEF
0005
0002
0016
001D
FFF6
0001
FFFD
FFF2
FFD8
FFE5
FFF1
000C
0001
FFEA
0006
FFFF
FFFF
FFF7
FFFF
FFF6
FFF9
0005
0002
FFF2
FFF6
FFF7
FFFE
FFFF
FFEF
FFE0
FFF7
FFF0
FFDF
0004
0005
FFF8
FFEA
FFE9
FFEF
FFF9
FFF2
0000
0003
FFFC
FFFC
0006
0008
000C
000F
0009
000D
0006
FFFC
FFFE
FFED
FFF5
0015
0008
0016
FFF2
0009
FFF9
FFF9
FFF8
FFE2
FFF0
FFFC
0008
FFFD
0015
FFFB
FFFC
0006
0009
000E
000C
0013
0009
0011
0018
FFFD
FFEA
FFD5
FFF1
000C
0001
0003
FFF8
0022
FFF8
FFFD
0000
FFF3
003D
0024
001C
0007
001B
001D
000D
0027
0027
0019
0026
0015
0016
0015
001A
0001
0008
0022
FFFC
FFF6
003A
FFF4
FFE5
FFFD
0004
FFFD
FFFD
0006
0018
0026
0048
FFFA
0027
0031
0029
0020
002D
002F
002D
0025
001A
0028
001C
002C
002F
0027
0032
0019
0026
0023
FFF9
FFF9
FFF8
FFFA
FFFA
FFF9
0001
001F
0020
0035
0040
0045
003D
0043
004C
0031
0051
004F
0047
0050
004E
0043
003D
004B
004A
0040
0021
0008
0007
0002
FFF8
0001
0002
0003
FFF9
FFF8
0004
0010
0023
0024
001A
002F
001C
0028
0020
003F
0040
0018
0026
004D
0024
001A
0026
002A
0007
0005
FFFA
0008
0006
FFFE
0002
FFF9
0001
0002
FFFB
FFFF
FFFD
FFF8
0004
FFFD
0006
0006
0004
FFF4
FFFF
FFFD
0005
0004
0006
FFF8
0007
0000
FFFA
FFFA
FFFF
0004
0007
0003
FFFB
0001
FFFD
0006
FFFE
0018
0022
0010
0010
0016
0028
FFF5
002A
FFFA
FFFD
FFD7
001C
001A
0026
0022
0011
0016
001B
0007
FFFD
0001
FFF8
0008
FFFD
FFFB
FFFB
001E
0004
0022
000A
0019
000A
0036
0016
0012
0001
0030
0016
0007
0010
0012
0018
0019
0013
002E
001C
000D
FFE6
FFFF
0001
FFFB
0001
FFFD
0003
0006
FFE8
001A
0035
FFF2
001A
0004
FFF0
0000
FFF7
FFE8
0011
FFF5
000D
0023
0018
001D
0034
0027
000D
0025
FFD8
FFFC
0002
FFFE
FFFD
FFFB
0001
0017
0010
FFF8
0008
FFF0
FFF1
FFDC
FFEE
FFFB
FFF7
FFF8
FFE8
FFFB
FFFA
FFFC
0006
000E
0016
0025
0033
001A
0014
FFD9
FFFE
FFF9
0004
FFFA
FFE4
0019
FFFF
0011
FFE9
0012
0011
000C
0008
FFFB
FFFF
FFFF
0000
FFFB
0005
0005
0005
FFFE
0010
0009
0020
003F
0009
0018
0000
FFF9
FFFB
0012
FFD3
0011
FFF7
FFEB
0012
0010
001A
0001
0002
0001
FFFA
000B
0010
0000
000B
FFFA
FFF6
FFF6
FFF8
FFF7
FFFB
0029
0023
001C
0014
FFFA
FFD9
000C
FFE0
FFF2
0005
FFF4
FFFB
0007
0009
0011
0006
000A
0006
0012
001C
0000
FFFF
0000
FFF3
0009
FFFC
FFEE
FFF6
0020
0021
0018
FFFA
0002
FFFD
0000
FFE7
FFE7
000B
FFF0
FFFD
000C
0004
0001
0012
0005
FFFC
FFF6
FFF7
FFE6
FFF4
FFDF
FFF6
FFE8
FFFE
FFF4
FFFD
0003
0012
FFF3
FFF4
0002
FFE3
000E
FFF4
FFFD
FFF3
0002
0009
0006
0002
0001
0004
0007
FFF9
FFF7
FFFA
FFDC
FFE6
FFD7
FFEA
FFF9
FFFD
FFFF
000F
0004
0010
000C
0024
0005
FFEE
FFE5
FFE4
FFE8
FFFD
FFFD
0008
0013
0012
0008
0007
FFFC
FFFB
FFDD
FFE8
FFDB
FFDB
FFE6
FFF8
FFF5
FFF7
FFF0
FFF8
FFFF
FFFE
FFD8
FFE1
000C
FFFF
FFE1
FFF8
0002
001D
0004
0011
0014
0021
001E
001C
001E
FFFD
FFF7
FFFD
001A
0002
FFED
FFF7
0005
0004
FFF3
FFFB
FFFF
FFF0
FFD0
0021
FFFF
FFE9
FFF8
FFF5
0010
0012
0008
0015
0023
0022
0009
001E
FFFE
0003
FFFA
0009
0008
000A
FFFC
0003
0002
0013
0017
0027
FFFB
FFCC
FFBC
0021
FFFA
0008
FFE7
FFF8
000C
0023
002E
0027
0007
0020
001A
000A
FFFD
0009
000F
0024
0017
000A
000C
0009
001E
0010
0018
0003
0001
FFCE
FFD3
FFDB
0008
FFEF
0002
000B
001E
0023
0010
0017
0011
0005
0014
0017
0000
0004
0012
0017
0023
0016
001D
0015
0015
0008
000A
000B
FFE1
0004
FFD5
0002
0003
FFE3
FFED
000C
FFE7
FFF1
0008
0006
000A
000B
0005
0012
0014
0016
001A
0014
0019
001F
0010
0010
000C
000A
0009
FFF1
FFDA
FFF9
FFDB
FFE5
0009
FFF8
FFD7
FFEF
FFE7
0004
0013
0006
0011
0009
0006
0012
0010
001B
0007
0016
001D
0013
0013
0008
0002
FFFB
0003
0003
FFEF
0000
FFCD
FFF2
0005
FFF8
FFF6
FFDE
FFD4
FFF0
FFF5
000D
FFFE
0006
0006
0009
0013
001A
0019
0008
0014
0012
0017
0002
0009
FFFA
0000
FFF7
FFFA
0009
FFB2
FFFA
FFFD
FFF4
FFEF
0004
FFE1
FFEC
FFF1
0005
0000
0007
FFFD
000E
001D
000F
0024
0019
0014
000E
000D
0006
0011
0007
FFE6
FFF4
0001
FFF9
FFD1
FFE2
0005
FFF4
001C
FFED
FFF9
FFFC
FFF5
FFFC
FFF6
FFF5
0003
000A
0011
000A
0012
0019
0013
0007
FFFB
0005
FFFB
0000
FFFB
000C
0005
FFD7
FFD3
FFFC
0002
FFE2
FFE8
000E
0000
FFFF
FFE8
FFEF
FFE5
0000
FFEF
0000
FFFE
0007
000F
000F
000D
000C
0007
000D
0007
0000
FFFF
FFF9
0000
002B
FFF2
FFFB
0003
0003
FFF5
FFC0
FFD5
FFE3
FFE3
FFF3
FFF7
FFFC
0004
FFFE
0010
0009
0010
0002
000F
0010
0009
000F
000E
FFEE
0002
FFF2
0017
FFCD
0018
FFFF
0004
FFFC
FFEA
FFE7
FFEE
FFD6
FFB1
FFF2
FFEC
FFF1
0001
0003
0019
000B
0004
0006
FFFC
FFFA
0001
FFF9
0000
FFFD
FFF7
0008
0023
FFE2
FFF6
FFFD
FFFB
FFFF
FFE8
0005
FFE1
FFF4
FFDF
FFDD
FFF0
FFE9
FFEB
FFEC
FFF0
FFF7
0000
0006
FFF4
0000
0010
0010
0016
0019
0004
0011
0017
FFD9
FFE8
0004
FFFE
FFFB
FFF7
FFEC
FFEC
FFF9
FFFF
000E
001C
FFF6
0009
FFF9
FFE0
FFE6
FFF0
FFF8
000E
000A
000E
0016
0028
0003
001A
0034
FFE1
FFED
FFFA
FFFD
FFF8
0006
0005
0013
0002
0021
FFFF
001D
FFFF
0015
0022
0011
0012
0002
000A
0001
000C
0011
001E
FFF6
002A
0025
0002
0014
FFEA
0002
FFFD
0008
0008
0005
0007
0003
0025
0044
0028
0031
001D
000F
0023
000E
0017
0013
0015
FFEF
0013
0007
000B
FFF0
000D
0002
0004
0022
0003
FFFF
FFFE
0006
0000
FFFE
0006
0006
FFFC
FFF4
FFEF
0014
001C
FFF2
0013
0019
0019
FFFA
0012
000E
000C
FFF1
001E
FFF9
0009
FFEE
002C
0004
FFF7
0001
0002
FFFE