FF9C
FFC2
0017
FFC8
0031
FFE6
002B
0054
0002
FF9F
0048
0023
0053
0018
FF94
FFFF
0031
FFBE
0005
FFCE
0022
003E
0038
FFC4
0044
0006
FFCD
0027
FFBC
FFDD
003E
FFBE
FFBA
FFFC
0024
0036
0031
FFAB
0025
FFD3
FFB3
FFC5
0046
002C
0050
FF8B
0024
FFBE
FFE9
002E
0047
FFBE
FF66
0036
FFE4
FFC3
FFFB
001F
0031
FFE8
FFE5
0004
FFF1
FFF0
FFD8
0015
0032
000F
FFAD
004A
FFFB
003A
FFEB
FFA2
0015
FFC0
0020
FFAD
0056
0005
FFC9
FFF9
000B
0046
0024
FFF6
FFA0
001F
FFF6
FFF4
FFB7
FF81
0020
FFD9
0002
FFDD
FF82
FFE8
0047
003A